TRT-101200-EntropyCalibration2
input: 3caa54fc
/patch_embed/proj/Conv_output_0: 3be1f693
/depth_head/output_conv2/output_conv2.1/Relu_output_0: 3ec13b4e
/norm_3/Div_output_0: 3de20b47
/depth_head/refinenet3/resConfUnit2/activation/Relu_output_0: 3fa4768f
/depth_head/refinenet3/resConfUnit2/conv1/Conv_output_0: 3f899028
/depth_head/projects.1/Conv_output_0: 3dbb8a76
/depth_head/layer1_rn/Conv_output_0: 3d2036d6
/depth_head/refinenet3/resConfUnit2/conv2/Conv_output_0: 3f013370
/depth_head/refinenet3/resConfUnit2/Add_output_0: 3fb97c3b
/depth_head/refinenet3/resConfUnit2/activation_1/Relu_output_0: 3f632f9b
/depth_head/Reshape_3_output_0: 3e12c499
/depth_head/refinenet3/resConfUnit1/Add_output_0: 3e4b2c62
/depth_head/refinenet2/resConfUnit2/conv2/Conv_output_0: 3f018a6c
/depth_head/refinenet4/resConfUnit2/Add_output_0: 3ff0066e
/depth_head/refinenet3/Add_output_0: 3fa4768f
/depth_head/refinenet3/out_conv/Conv_output_0: 3f681eec
/depth_head/refinenet2/Add_output_0: 3f773cd7
/depth_head/refinenet1/resConfUnit2/activation_1/Relu_output_0: 3e8a81c3
/depth_head/layer3_rn/Conv_output_0: 3e263515
/depth_head/refinenet2/resConfUnit1/conv1/Conv_output_0: 3d88d575
/depth_head/refinenet4/resConfUnit2/conv1/Conv_output_0: 3f79d28b
/depth_head/refinenet4/resConfUnit2/activation/Relu_output_0: 3fab318a
/depth_head/refinenet2/resConfUnit1/Add_output_0: 3dd6677e
/depth_head/Reshape_1_output_0: 3f05b19c
/depth_head/refinenet1/resConfUnit1/conv1/Conv_output_0: 3d4d2fdd
/depth_head/Transpose_2_output_0: 3ee61295
/depth_head/refinenet2/resConfUnit2/conv1/Conv_output_0: 3f2835bf
/depth_head/refinenet2/resConfUnit2/activation_1/Relu_output_0: 3f27d6d2
/depth_head/Reshape_2_output_0: 3ee61295
/depth_head/refinenet2/Resize_output_0: 3f910dfa
/depth_head/refinenet1/out_conv/Conv_output_0: 3ea91bcd
/depth_head/refinenet3/Resize_output_0: 3fb97c3b
/patch_embed/Reshape_output_0: 3be1f693
/patch_embed/Transpose_output_0: 3be1f693
/depth_head/refinenet1/resConfUnit2/conv2/Conv_output_0: 3e82424b
/depth_head/refinenet4/out_conv/Conv_output_0: 3f94c97b
/Slice_3_output_0: 3e12c499
ONNXTRT_Broadcast_693_output: 3dad28c5
/depth_head/refinenet2/resConfUnit2/activation/Relu_output_0: 3f83786d
/depth_head/output_conv2/output_conv2.2/Conv_output_0: 3dddeb89
/depth_head/refinenet4/Resize_output_0: 3fe9ea36
/depth_head/refinenet3/resConfUnit1/conv1/Conv_output_0: 3e2a0535
/depth_head/Resize_output_0: 3ed4ac73
pretrained.cls_token_output: 3a2b2529
/depth_head/refinenet4/resConfUnit2/conv2/Conv_output_0: 3f2d30de
/depth_head/refinenet2/resConfUnit1/activation_1/Relu_output_0: 3d8ea64b
/depth_head/refinenet2/out_conv/Conv_output_0: 3f4e41c4
/depth_head/output_conv2/output_conv2.3/Relu_output_0: 3dddeb89
/depth_head/refinenet3/resConfUnit1/activation_1/Relu_output_0: 3e186091
/depth_head/refinenet3/resConfUnit1/conv2/Conv_output_0: 3e0a6ca3
/Expand_output_0: 3a2b2529
/Concat_output_0: 3be1f693
pretrained.pos_embed_output: 3a7a294f
/Add_output_0: 3bdfd5c3
/blocks.0/norm1/ReduceMean_output_0: 395cd256
/blocks.0/norm1/Sub_output_0: 3bdd83b6
/blocks.0/norm1/Constant_output_0_output: 3c810a14
ONNXTRT_Broadcast_42_output: 3c810a14
/blocks.0/norm1/Pow_output_0: 3bba2303
/blocks.0/norm1/ReduceMean_1_output_0: 3a1a3747
/blocks.0/norm1/Constant_1_output_0_output: 32074ebd
ONNXTRT_Broadcast_44_output: 32074ebd
/blocks.0/norm1/Add_output_0: 3a1a3886
/blocks.0/norm1/Sqrt_output_0: 3b04d7f2
/blocks.0/norm1/Div_output_0: 3da769f4
pretrained.blocks.0.norm1.weight_output: 3cca9e94
ONNXTRT_Broadcast_46_output: 3cca9e94
/blocks.0/norm1/Mul_output_0: 3d962044
pretrained.blocks.0.norm1.bias_output: 3c7738ae
ONNXTRT_Broadcast_48_output: 3c7738ae
/blocks.0/norm1/Add_1_output_0: 3d75a390
onnx::MatMul_1377_output: 3b03b0cc
ONNXTRT_Broadcast_50_output: 3b03b0cc
/blocks.0/attn/qkv/MatMul_output_0: 3d14c40f
pretrained.blocks.0.attn.qkv.bias_output: 3d8ff086
ONNXTRT_Broadcast_52_output: 3d8ff086
/blocks.0/attn/qkv/Add_output_0: 3dae47ac
/blocks.0/attn/Reshape_output_0: 3dae47ac
/blocks.0/attn/Transpose_output_0: 3dae47ac
/depth_head/refinenet1/Resize_output_0: 3f501a2a
/depth_head/refinenet1/resConfUnit2/activation/Relu_output_0: 3ec30ba1
/blocks.0/attn/Gather_output_0: 3d4d989d
/blocks.0/attn/Constant_1_output_0_output: 3a810a14
ONNXTRT_Broadcast_56_output: 3a810a14
/blocks.0/attn/Mul_output_0: 3bcd989d
/Slice_output_0: 3eeea51c
/depth_head/Transpose_output_0: 3eeea51c
/blocks.0/attn/Gather_1_output_0: 3db0b903
/depth_head/refinenet2/resConfUnit2/Add_output_0: 3f913dfc
/depth_head/refinenet1/resConfUnit1/activation_1/Relu_output_0: 3d4d564c
/blocks.0/attn/Gather_2_output_0: 3cdad677
/blocks.0/attn/Transpose_1_output_0: 3db0b903
/blocks.0/attn/MatMul_output_0: 3f28cadd
ONNXTRT_flattenTensor_output: 3f28cadd
/blocks.0/attn/Softmax_output: 3a940549
/blocks.0/attn/Softmax_output_0: 3a940549
/blocks.0/attn/MatMul_1_output_0: 3c8333bd
/blocks.0/attn/Transpose_2_output_0: 3c8333bd
/blocks.0/attn/Reshape_1_output_0: 3c8333bd
onnx::MatMul_1388_output: 3a800cb7
ONNXTRT_Broadcast_63_output: 3a800cb7
/blocks.0/attn/proj/MatMul_output_0: 3c467be5
pretrained.blocks.0.attn.proj.bias_output: 3b0b0d06
ONNXTRT_Broadcast_65_output: 3b0b0d06
/blocks.0/attn/proj/Add_output_0: 3c31dac7
pretrained.blocks.0.ls1.gamma_output: 3bdc7879
ONNXTRT_Broadcast_67_output: 3bdc7879
/blocks.0/ls1/Mul_output_0: 3baa6a2b
/blocks.0/Add_output_0: 3c8910a4
/blocks.0/norm2/ReduceMean_output_0: 39671f1f
/blocks.0/norm2/Sub_output_0: 3c8a294b
/blocks.0/norm2/Constant_output_0_output: 3c810a14
ONNXTRT_Broadcast_69_output: 3c810a14
/blocks.0/norm2/Pow_output_0: 3c245eed
/blocks.0/norm2/ReduceMean_1_output_0: 39d2c66a
/blocks.0/norm2/Constant_1_output_0_output: 32074ebd
ONNXTRT_Broadcast_71_output: 32074ebd
/blocks.0/norm2/Add_output_0: 39d305e0
/blocks.0/norm2/Sqrt_output_0: 3aeca11c
/blocks.0/norm2/Div_output_0: 3e03c4a8
pretrained.blocks.0.norm2.weight_output: 3d3fc5f4
ONNXTRT_Broadcast_73_output: 3d3fc5f4
/blocks.0/norm2/Mul_output_0: 3e9a9360
pretrained.blocks.0.norm2.bias_output: 3ca85237
ONNXTRT_Broadcast_75_output: 3ca85237
/blocks.0/norm2/Add_1_output_0: 3e82126f
onnx::MatMul_1389_output: 3ace52a2
ONNXTRT_Broadcast_77_output: 3ace52a2
/blocks.0/mlp/fc1/MatMul_output_0: 3d9e1ee6
pretrained.blocks.0.mlp.fc1.bias_output: 3c898e02
ONNXTRT_Broadcast_79_output: 3c898e02
/blocks.0/mlp/fc1/Add_output_0: 3dbd820d
/blocks.0/mlp/act/Constant_output_0_output: 3c367d3d
ONNXTRT_Broadcast_81_output: 3c367d3d
/blocks.0/mlp/act/Div_output_0: 3d86009d
/blocks.0/mlp/act/Erf_output_0: 3c010a14
/blocks.0/mlp/act/Constant_1_output_0_output: 3c010a14
ONNXTRT_Broadcast_83_output: 3c010a14
/blocks.0/mlp/act/Add_output_0: 3c810a14
/blocks.0/mlp/act/Mul_output_0: 3ce2ec26
/blocks.0/mlp/act/Constant_2_output_0_output: 3b810a14
ONNXTRT_Broadcast_85_output: 3b810a14
/blocks.0/mlp/act/Mul_1_output_0: 3c62ec26
onnx::MatMul_1390_output: 3aa42206
ONNXTRT_Broadcast_87_output: 3aa42206
/blocks.0/mlp/fc2/MatMul_output_0: 3c893881
pretrained.blocks.0.mlp.fc2.bias_output: 3ba1c372
ONNXTRT_Broadcast_89_output: 3ba1c372
/blocks.0/mlp/fc2/Add_output_0: 3cbed698
pretrained.blocks.0.ls2.gamma_output: 3b41514e
ONNXTRT_Broadcast_91_output: 3b41514e
/blocks.0/ls2/Mul_output_0: 3c74e2b1
/blocks.0/Add_1_output_0: 3bc9884e
/blocks.1/norm1/ReduceMean_output_0: 396f637b
/blocks.1/norm1/Sub_output_0: 3bc7921b
/blocks.1/norm1/Constant_output_0_output: 3c810a14
ONNXTRT_Broadcast_93_output: 3c810a14
/blocks.1/norm1/Pow_output_0: 3a80b1b6
/blocks.1/norm1/ReduceMean_1_output_0: 38a568b5
/blocks.1/norm1/Constant_1_output_0_output: 32074ebd
ONNXTRT_Broadcast_95_output: 32074ebd
/blocks.1/norm1/Add_output_0: 38a56edb
/blocks.1/norm1/Sqrt_output_0: 3a4f5a65
/blocks.1/norm1/Div_output_0: 3ddbfcb1
pretrained.blocks.1.norm1.weight_output: 3d0ddef8
ONNXTRT_Broadcast_97_output: 3d0ddef8
/blocks.1/norm1/Mul_output_0: 3e3f2508
pretrained.blocks.1.norm1.bias_output: 3be7a020
ONNXTRT_Broadcast_99_output: 3be7a020
/blocks.1/norm1/Add_1_output_0: 3e395435
onnx::MatMul_1391_output: 3b347559
ONNXTRT_Broadcast_101_output: 3b347559
/blocks.1/attn/qkv/MatMul_output_0: 3d91f5b7
pretrained.blocks.1.attn.qkv.bias_output: 3d81b4e2
ONNXTRT_Broadcast_103_output: 3d81b4e2
/blocks.1/attn/qkv/Add_output_0: 3db66119
/blocks.1/attn/Reshape_output_0: 3db66119
/blocks.1/attn/Transpose_output_0: 3db66119
/depth_head/refinenet2/resConfUnit1/conv2/Conv_output_0: 3db34abb
/blocks.1/attn/Gather_output_0: 3da8fffd
/blocks.1/attn/Constant_1_output_0_output: 3a810a14
ONNXTRT_Broadcast_107_output: 3a810a14
/blocks.1/attn/Mul_output_0: 3c28fffd
/norm_3/Add_1_output_0: 3e12c499
/blocks.1/attn/Gather_1_output_0: 3dc1c5a5
/Slice_2_output_0: 3ee61295
/blocks.1/attn/Gather_2_output_0: 3ccbf235
/blocks.1/attn/Transpose_1_output_0: 3dc1c5a5
/blocks.1/attn/MatMul_output_0: 3f16977c
ONNXTRT_flattenTensor_111_output: 3f16977c
/blocks.1/attn/Softmax_output: 3a934e2a
/blocks.1/attn/Softmax_output_0: 3a934e2a
/blocks.1/attn/MatMul_1_output_0: 3cc2b02f
/blocks.1/attn/Transpose_2_output_0: 3cc2b02f
/blocks.1/attn/Reshape_1_output_0: 3cc2b02f
onnx::MatMul_1402_output: 3a501759
ONNXTRT_Broadcast_115_output: 3a501759
/blocks.1/attn/proj/MatMul_output_0: 3bdb7215
pretrained.blocks.1.attn.proj.bias_output: 3b024114
ONNXTRT_Broadcast_117_output: 3b024114
/blocks.1/attn/proj/Add_output_0: 3c58bce2
pretrained.blocks.1.ls1.gamma_output: 3b692c6a
ONNXTRT_Broadcast_119_output: 3b692c6a
/blocks.1/ls1/Mul_output_0: 3be88686
/blocks.1/Add_output_0: 3b5ea288
/blocks.1/norm2/ReduceMean_output_0: 394cd173
/blocks.1/norm2/Sub_output_0: 3b688148
/blocks.1/norm2/Constant_output_0_output: 3c810a14
ONNXTRT_Broadcast_121_output: 3c810a14
/blocks.1/norm2/Pow_output_0: 3a0687a2
/blocks.1/norm2/ReduceMean_1_output_0: 38276ee8
/blocks.1/norm2/Constant_1_output_0_output: 32074ebd
ONNXTRT_Broadcast_123_output: 32074ebd
/blocks.1/norm2/Add_output_0: 38277d87
/blocks.1/norm2/Sqrt_output_0: 3a17c7b2
/blocks.1/norm2/Div_output_0: 3dbeeb81
pretrained.blocks.1.norm2.weight_output: 3d0aa0c2
ONNXTRT_Broadcast_125_output: 3d0aa0c2
/blocks.1/norm2/Mul_output_0: 3e069325
pretrained.blocks.1.norm2.bias_output: 3c471488
ONNXTRT_Broadcast_127_output: 3c471488
/blocks.1/norm2/Add_1_output_0: 3e060da9
onnx::MatMul_1403_output: 3a97a498
ONNXTRT_Broadcast_129_output: 3a97a498
/blocks.1/mlp/fc1/MatMul_output_0: 3d36e27a
pretrained.blocks.1.mlp.fc1.bias_output: 3c918bc2
ONNXTRT_Broadcast_131_output: 3c918bc2
/blocks.1/mlp/fc1/Add_output_0: 3d492ff3
/blocks.1/mlp/act/Constant_output_0_output: 3c367d3d
ONNXTRT_Broadcast_133_output: 3c367d3d
/blocks.1/mlp/act/Div_output_0: 3d0e42cb
/blocks.1/mlp/act/Erf_output_0: 3c010a14
/blocks.1/mlp/act/Constant_1_output_0_output: 3c010a14
ONNXTRT_Broadcast_135_output: 3c010a14
/blocks.1/mlp/act/Add_output_0: 3c810a14
/blocks.1/mlp/act/Mul_output_0: 3d1f2b55
/blocks.1/mlp/act/Constant_2_output_0_output: 3b810a14
ONNXTRT_Broadcast_137_output: 3b810a14
/blocks.1/mlp/act/Mul_1_output_0: 3c9f2b55
onnx::MatMul_1404_output: 3a825a04
ONNXTRT_Broadcast_139_output: 3a825a04
/blocks.1/mlp/fc2/MatMul_output_0: 3c4c35f2
pretrained.blocks.1.mlp.fc2.bias_output: 3b97bd9c
ONNXTRT_Broadcast_141_output: 3b97bd9c
/blocks.1/mlp/fc2/Add_output_0: 3c9fe0c9
pretrained.blocks.1.ls2.gamma_output: 3afb51f3
ONNXTRT_Broadcast_143_output: 3afb51f3
/blocks.1/ls2/Mul_output_0: 3b90ce26
/blocks.1/Add_1_output_0: 3b49c600
/blocks.2/norm1/ReduceMean_output_0: 3949378e
/blocks.2/norm1/Sub_output_0: 3b49cc29
/blocks.2/norm1/Constant_output_0_output: 3c810a14
ONNXTRT_Broadcast_145_output: 3c810a14
/blocks.2/norm1/Pow_output_0: 3a41b7c7
/blocks.2/norm1/ReduceMean_1_output_0: 37fd46a3
/blocks.2/norm1/Constant_1_output_0_output: 32074ebd
ONNXTRT_Broadcast_147_output: 32074ebd
/blocks.2/norm1/Add_output_0: 37fe8181
/blocks.2/norm1/Sqrt_output_0: 39ffdd67
/blocks.2/norm1/Div_output_0: 3dafe6bb
pretrained.blocks.2.norm1.weight_output: 3d03c5bd
ONNXTRT_Broadcast_149_output: 3d03c5bd
/blocks.2/norm1/Mul_output_0: 3e0ee44e
pretrained.blocks.2.norm1.bias_output: 3c124e37
ONNXTRT_Broadcast_151_output: 3c124e37
/blocks.2/norm1/Add_1_output_0: 3e0ec66e
onnx::MatMul_1405_output: 3b178b43
ONNXTRT_Broadcast_153_output: 3b178b43
/blocks.2/attn/qkv/MatMul_output_0: 3d8c2d3d
pretrained.blocks.2.attn.qkv.bias_output: 3d419370
ONNXTRT_Broadcast_155_output: 3d419370
/blocks.2/attn/qkv/Add_output_0: 3da73fdc
/blocks.2/attn/Reshape_output_0: 3da73fdc
/blocks.2/attn/Transpose_output_0: 3da73fdc
/depth_head/refinenet1/resConfUnit1/conv2/Conv_output_0: 3d6640ef
/blocks.2/attn/Gather_output_0: 3da34fca
/blocks.2/attn/Constant_1_output_0_output: 3a810a14
ONNXTRT_Broadcast_159_output: 3a810a14
/blocks.2/attn/Mul_output_0: 3c234fca
/depth_head/refinenet4/resConfUnit2/activation_1/Relu_output_0: 3f77c7dc
/blocks.2/attn/Gather_1_output_0: 3dbbf58c
/depth_head/Reshape_output_0: 3eeea51c
/blocks.2/attn/Gather_2_output_0: 3cb4498b
/blocks.2/attn/Transpose_1_output_0: 3dbbf58c
/blocks.2/attn/MatMul_output_0: 3f1d7abd
ONNXTRT_flattenTensor_163_output: 3f1d7abd
/blocks.2/attn/Softmax_output: 3aa1b8a1
/blocks.2/attn/Softmax_output_0: 3aa1b8a1
/blocks.2/attn/MatMul_1_output_0: 3c8bcfe7
/blocks.2/attn/Transpose_2_output_0: 3c8bcfe7
/blocks.2/attn/Reshape_1_output_0: 3c8bcfe7
onnx::MatMul_1416_output: 3a307c33
ONNXTRT_Broadcast_167_output: 3a307c33
/blocks.2/attn/proj/MatMul_output_0: 3b9740b5
pretrained.blocks.2.attn.proj.bias_output: 3b1ce25e
ONNXTRT_Broadcast_169_output: 3b1ce25e
/blocks.2/attn/proj/Add_output_0: 3bad17ce
pretrained.blocks.2.ls1.gamma_output: 3b6993f4
ONNXTRT_Broadcast_171_output: 3b6993f4
/blocks.2/ls1/Mul_output_0: 3b1e4a79
/blocks.2/Add_output_0: 3b2a02d2
/blocks.2/norm2/ReduceMean_output_0: 3948be8c
/blocks.2/norm2/Sub_output_0: 3b262fcf
/blocks.2/norm2/Constant_output_0_output: 3c810a14
ONNXTRT_Broadcast_173_output: 3c810a14
/blocks.2/norm2/Pow_output_0: 39ba8387
/blocks.2/norm2/ReduceMean_1_output_0: 37af73c1
/blocks.2/norm2/Constant_1_output_0_output: 32074ebd
ONNXTRT_Broadcast_175_output: 32074ebd
/blocks.2/norm2/Add_output_0: 37af8b6d
/blocks.2/norm2/Sqrt_output_0: 39d7cbc1
/blocks.2/norm2/Div_output_0: 3daa6a42
pretrained.blocks.2.norm2.weight_output: 3ce78f6a
ONNXTRT_Broadcast_177_output: 3ce78f6a
/blocks.2/norm2/Mul_output_0: 3df38678
pretrained.blocks.2.norm2.bias_output: 3c4b4596
ONNXTRT_Broadcast_179_output: 3c4b4596
/blocks.2/norm2/Add_1_output_0: 3ddc4841
onnx::MatMul_1417_output: 3a85ab57
ONNXTRT_Broadcast_181_output: 3a85ab57
/blocks.2/mlp/fc1/MatMul_output_0: 3d09f254
pretrained.blocks.2.mlp.fc1.bias_output: 3c5802a0
ONNXTRT_Broadcast_183_output: 3c5802a0
/blocks.2/mlp/fc1/Add_output_0: 3d34ae4d
/blocks.2/mlp/act/Constant_output_0_output: 3c367d3d
ONNXTRT_Broadcast_185_output: 3c367d3d
/blocks.2/mlp/act/Div_output_0: 3cff8576
/blocks.2/mlp/act/Erf_output_0: 3c010a14
/blocks.2/mlp/act/Constant_1_output_0_output: 3c010a14
ONNXTRT_Broadcast_187_output: 3c010a14
/blocks.2/mlp/act/Add_output_0: 3c80f9f4
/blocks.2/mlp/act/Mul_output_0: 3d10a65f
/blocks.2/mlp/act/Constant_2_output_0_output: 3b810a14
ONNXTRT_Broadcast_189_output: 3b810a14
/blocks.2/mlp/act/Mul_1_output_0: 3c90a65f
onnx::MatMul_1418_output: 3a6b7b1a
ONNXTRT_Broadcast_191_output: 3a6b7b1a
/blocks.2/mlp/fc2/MatMul_output_0: 3bfc2032
pretrained.blocks.2.mlp.fc2.bias_output: 3b167551
ONNXTRT_Broadcast_193_output: 3b167551
/blocks.2/mlp/fc2/Add_output_0: 3c1bc05d
pretrained.blocks.2.ls2.gamma_output: 3b404181
ONNXTRT_Broadcast_195_output: 3b404181
/blocks.2/ls2/Mul_output_0: 3abc3bd1
/blocks.2/Add_1_output_0: 3b16f224
/blocks.3/norm1/ReduceMean_output_0: 39326cfc
/blocks.3/norm1/Sub_output_0: 3b13cde8
/blocks.3/norm1/Constant_output_0_output: 3c810a14
ONNXTRT_Broadcast_197_output: 3c810a14
/blocks.3/norm1/Pow_output_0: 3b6130c3
/blocks.3/norm1/ReduceMean_1_output_0: 375d470f
/blocks.3/norm1/Constant_1_output_0_output: 32074ebd
ONNXTRT_Broadcast_199_output: 32074ebd
/blocks.3/norm1/Add_output_0: 375d4bc5
/blocks.3/norm1/Sqrt_output_0: 39aa1287
/blocks.3/norm1/Div_output_0: 3d9bc709
pretrained.blocks.3.norm1.weight_output: 3d5131ae
ONNXTRT_Broadcast_201_output: 3d5131ae
/blocks.3/norm1/Mul_output_0: 3e5ca3fe
pretrained.blocks.3.norm1.bias_output: 3c41f1eb
ONNXTRT_Broadcast_203_output: 3c41f1eb
/blocks.3/norm1/Add_1_output_0: 3e568402
onnx::MatMul_1419_output: 3acd78f0
ONNXTRT_Broadcast_205_output: 3acd78f0
/blocks.3/attn/qkv/MatMul_output_0: 3d9a2951
pretrained.blocks.3.attn.qkv.bias_output: 3e00a04f
ONNXTRT_Broadcast_207_output: 3e00a04f
/blocks.3/attn/qkv/Add_output_0: 3e96b008
/blocks.3/attn/Reshape_output_0: 3e96b008
/blocks.3/attn/Transpose_output_0: 3e96b008
ONNXTRT_Broadcast_695_output: 3c35415e
/blocks.3/attn/Gather_output_0: 3dda7f45
/blocks.3/attn/Constant_1_output_0_output: 3a810a14
ONNXTRT_Broadcast_211_output: 3a810a14
/blocks.3/attn/Mul_output_0: 3c5a7f45
/depth_head/resize_layers.3/Conv_output_0: 3f353034
/blocks.3/attn/Gather_1_output_0: 3e96b008
output: 3dddeb89
/blocks.3/attn/Gather_2_output_0: 3cdbf2e6
/blocks.3/attn/Transpose_1_output_0: 3e96b008
/blocks.3/attn/MatMul_output_0: 402f480e
ONNXTRT_flattenTensor_215_output: 402f480e
/blocks.3/attn/Softmax_output: 3aa9da51
/blocks.3/attn/Softmax_output_0: 3aa9da51
/blocks.3/attn/MatMul_1_output_0: 3c9e8478
/blocks.3/attn/Transpose_2_output_0: 3c9e8478
/blocks.3/attn/Reshape_1_output_0: 3c9e8478
onnx::MatMul_1430_output: 3a0bfd5e
ONNXTRT_Broadcast_219_output: 3a0bfd5e
/blocks.3/attn/proj/MatMul_output_0: 3baa62d4
pretrained.blocks.3.attn.proj.bias_output: 3b40f99c
ONNXTRT_Broadcast_221_output: 3b40f99c
/blocks.3/attn/proj/Add_output_0: 3ba377d0
pretrained.blocks.3.ls1.gamma_output: 3baf33b0
ONNXTRT_Broadcast_223_output: 3baf33b0
/blocks.3/ls1/Mul_output_0: 3afaf7c1
/blocks.3/Add_output_0: 3b0149b1
/blocks.3/norm2/ReduceMean_output_0: 393ab806
/blocks.3/norm2/Sub_output_0: 3b0018e0
/blocks.3/norm2/Constant_output_0_output: 3c810a14
ONNXTRT_Broadcast_225_output: 3c810a14
/blocks.3/norm2/Pow_output_0: 3cbec7d6
/blocks.3/norm2/ReduceMean_1_output_0: 378311e9
/blocks.3/norm2/Constant_1_output_0_output: 32074ebd
ONNXTRT_Broadcast_227_output: 32074ebd
/blocks.3/norm2/Add_output_0: 378314e4
/blocks.3/norm2/Sqrt_output_0: 39b82724
/blocks.3/norm2/Div_output_0: 3d8e8241
pretrained.blocks.3.norm2.weight_output: 3ccb9a67
ONNXTRT_Broadcast_229_output: 3ccb9a67
/blocks.3/norm2/Mul_output_0: 3df7b48b
pretrained.blocks.3.norm2.bias_output: 3c146389
ONNXTRT_Broadcast_231_output: 3c146389
/blocks.3/norm2/Add_1_output_0: 3dd69ed9
onnx::MatMul_1431_output: 3a72e1bb
ONNXTRT_Broadcast_233_output: 3a72e1bb
/blocks.3/mlp/fc1/MatMul_output_0: 3cede36c
pretrained.blocks.3.mlp.fc1.bias_output: 3cbe8c7b
ONNXTRT_Broadcast_235_output: 3cbe8c7b
/blocks.3/mlp/fc1/Add_output_0: 3d823735
/blocks.3/mlp/act/Constant_output_0_output: 3c367d3d
ONNXTRT_Broadcast_237_output: 3c367d3d
/blocks.3/mlp/act/Div_output_0: 3d38271b
/blocks.3/mlp/act/Erf_output_0: 3c010a14
/blocks.3/mlp/act/Constant_1_output_0_output: 3c010a14
ONNXTRT_Broadcast_239_output: 3c010a14
/blocks.3/mlp/act/Add_output_0: 3c80b914
/blocks.3/mlp/act/Mul_output_0: 3c867768
/blocks.3/mlp/act/Constant_2_output_0_output: 3b810a14
ONNXTRT_Broadcast_241_output: 3b810a14
/blocks.3/mlp/act/Mul_1_output_0: 3c067768
onnx::MatMul_1432_output: 3a3a5364
ONNXTRT_Broadcast_243_output: 3a3a5364
/blocks.3/mlp/fc2/MatMul_output_0: 3bda5795
pretrained.blocks.3.mlp.fc2.bias_output: 3ac6ee44
ONNXTRT_Broadcast_245_output: 3ac6ee44
/blocks.3/mlp/fc2/Add_output_0: 3bc56965
pretrained.blocks.3.ls2.gamma_output: 3b4c4519
ONNXTRT_Broadcast_247_output: 3b4c4519
/blocks.3/ls2/Mul_output_0: 3aef7a17
/blocks.3/Add_1_output_0: 3b17c81b
/blocks.4/norm1/ReduceMean_output_0: 393e0ac5
/blocks.4/norm1/Sub_output_0: 3b175ad8
/blocks.4/norm1/Constant_output_0_output: 3c810a14
ONNXTRT_Broadcast_249_output: 3c810a14
/blocks.4/norm1/Pow_output_0: 3b444f3c
/blocks.4/norm1/ReduceMean_1_output_0: 3780e0fc
/blocks.4/norm1/Constant_1_output_0_output: 32074ebd
ONNXTRT_Broadcast_251_output: 32074ebd
/blocks.4/norm1/Add_output_0: 3780e3e7
/blocks.4/norm1/Sqrt_output_0: 39b2a8cd
/blocks.4/norm1/Div_output_0: 3d93885d
pretrained.blocks.4.norm1.weight_output: 3d165e91
ONNXTRT_Broadcast_253_output: 3d165e91
/blocks.4/norm1/Mul_output_0: 3e0d0b7f
pretrained.blocks.4.norm1.bias_output: 3c48c861
ONNXTRT_Broadcast_255_output: 3c48c861
/blocks.4/norm1/Add_1_output_0: 3def9224
onnx::MatMul_1433_output: 3aaf0309
ONNXTRT_Broadcast_257_output: 3aaf0309
/blocks.4/attn/qkv/MatMul_output_0: 3d517a78
pretrained.blocks.4.attn.qkv.bias_output: 3cda42c4
ONNXTRT_Broadcast_259_output: 3cda42c4
/blocks.4/attn/qkv/Add_output_0: 3d67a049
/blocks.4/attn/Reshape_output_0: 3d67a049
/blocks.4/attn/Transpose_output_0: 3d67a049
/depth_head/layer2_rn/Conv_output_0: 3d88ffbb
/blocks.4/attn/Gather_output_0: 3d704f7f
/blocks.4/attn/Constant_1_output_0_output: 3a810a14
ONNXTRT_Broadcast_263_output: 3a810a14
/blocks.4/attn/Mul_output_0: 3bf04f7f
/depth_head/refinenet3/resConfUnit1/activation/Relu_output_0: 3e263515
/blocks.4/attn/Gather_1_output_0: 3d76a17b
/depth_head/projects.2/Conv_output_0: 3dacd1c5
/blocks.4/attn/Gather_2_output_0: 3ce5d6c8
/blocks.4/attn/Transpose_1_output_0: 3d76a17b
/blocks.4/attn/MatMul_output_0: 3e449c24
ONNXTRT_flattenTensor_267_output: 3e449c24
/blocks.4/attn/Softmax_output: 3aa894d6
/blocks.4/attn/Softmax_output_0: 3aa894d6
/blocks.4/attn/MatMul_1_output_0: 3ca482a1
/blocks.4/attn/Transpose_2_output_0: 3ca482a1
/blocks.4/attn/Reshape_1_output_0: 3ca482a1
onnx::MatMul_1444_output: 3a212618
ONNXTRT_Broadcast_271_output: 3a212618
/blocks.4/attn/proj/MatMul_output_0: 3b89cc1a
pretrained.blocks.4.attn.proj.bias_output: 3af8fc27
ONNXTRT_Broadcast_273_output: 3af8fc27
/blocks.4/attn/proj/Add_output_0: 3b97689d
pretrained.blocks.4.ls1.gamma_output: 3b6335ac
ONNXTRT_Broadcast_275_output: 3b6335ac
/blocks.4/ls1/Mul_output_0: 3af63531
/blocks.4/Add_output_0: 3b16deb8
/blocks.4/norm2/ReduceMean_output_0: 39419faa
/blocks.4/norm2/Sub_output_0: 3b1677e0
/blocks.4/norm2/Constant_output_0_output: 3c810a14
ONNXTRT_Broadcast_277_output: 3c810a14
/blocks.4/norm2/Pow_output_0: 3cacf909
/blocks.4/norm2/ReduceMean_1_output_0: 37a22d54
/blocks.4/norm2/Constant_1_output_0_output: 32074ebd
ONNXTRT_Broadcast_279_output: 32074ebd
/blocks.4/norm2/Add_output_0: 37a2311e
/blocks.4/norm2/Sqrt_output_0: 39c76339
/blocks.4/norm2/Div_output_0: 3d90ec97
pretrained.blocks.4.norm2.weight_output: 3ca72a77
ONNXTRT_Broadcast_281_output: 3ca72a77
/blocks.4/norm2/Mul_output_0: 3e0c51cc
pretrained.blocks.4.norm2.bias_output: 3c89aaae
ONNXTRT_Broadcast_283_output: 3c89aaae
/blocks.4/norm2/Add_1_output_0: 3dfad1e2
onnx::MatMul_1445_output: 3a8455ac
ONNXTRT_Broadcast_285_output: 3a8455ac
/blocks.4/mlp/fc1/MatMul_output_0: 3cfd0e8a
pretrained.blocks.4.mlp.fc1.bias_output: 3c7de989
ONNXTRT_Broadcast_287_output: 3c7de989
/blocks.4/mlp/fc1/Add_output_0: 3d54fe20
/blocks.4/mlp/act/Constant_output_0_output: 3c367d3d
ONNXTRT_Broadcast_289_output: 3c367d3d
/blocks.4/mlp/act/Div_output_0: 3d169bcc
/blocks.4/mlp/act/Erf_output_0: 3c010a14
/blocks.4/mlp/act/Constant_1_output_0_output: 3c010a14
ONNXTRT_Broadcast_291_output: 3c010a14
/blocks.4/mlp/act/Add_output_0: 3c80d4a1
/blocks.4/mlp/act/Mul_output_0: 3c948803
/blocks.4/mlp/act/Constant_2_output_0_output: 3b810a14
ONNXTRT_Broadcast_293_output: 3b810a14
/blocks.4/mlp/act/Mul_1_output_0: 3c148803
onnx::MatMul_1446_output: 3a87a8d5
ONNXTRT_Broadcast_295_output: 3a87a8d5
/blocks.4/mlp/fc2/MatMul_output_0: 3c0ae251
pretrained.blocks.4.mlp.fc2.bias_output: 3aca9bdc
ONNXTRT_Broadcast_297_output: 3aca9bdc
/blocks.4/mlp/fc2/Add_output_0: 3b8fdd99
pretrained.blocks.4.ls2.gamma_output: 3b4f6a4d
ONNXTRT_Broadcast_299_output: 3b4f6a4d
/blocks.4/ls2/Mul_output_0: 3b23e9e5
/blocks.4/Add_1_output_0: 3b3aa660
/blocks.5/norm1/ReduceMean_output_0: 393cd474
/blocks.5/norm1/Sub_output_0: 3b39f125
/blocks.5/norm1/Constant_output_0_output: 3c810a14
ONNXTRT_Broadcast_301_output: 3c810a14
/blocks.5/norm1/Pow_output_0: 3c1d2744
/blocks.5/norm1/ReduceMean_1_output_0: 37b49cd2
/blocks.5/norm1/Constant_1_output_0_output: 32074ebd
ONNXTRT_Broadcast_303_output: 32074ebd
/blocks.5/norm1/Add_output_0: 37b4a025
/blocks.5/norm1/Sqrt_output_0: 39d800af
/blocks.5/norm1/Div_output_0: 3d8cc85f
pretrained.blocks.5.norm1.weight_output: 3cf6fee9
ONNXTRT_Broadcast_305_output: 3cf6fee9
/blocks.5/norm1/Mul_output_0: 3e175221
pretrained.blocks.5.norm1.bias_output: 3c861e11
ONNXTRT_Broadcast_307_output: 3c861e11
/blocks.5/norm1/Add_1_output_0: 3e0057eb
onnx::MatMul_1447_output: 3a9c0de9
ONNXTRT_Broadcast_309_output: 3a9c0de9
/blocks.5/attn/qkv/MatMul_output_0: 3d4fa080
pretrained.blocks.5.attn.qkv.bias_output: 3cce8a9d
ONNXTRT_Broadcast_311_output: 3cce8a9d
/blocks.5/attn/qkv/Add_output_0: 3d707063
/blocks.5/attn/Reshape_output_0: 3d707063
/blocks.5/attn/Transpose_output_0: 3d707063
/depth_head/output_conv1/Conv_output_0: 3ed50f2f
/blocks.5/attn/Gather_output_0: 3d817423
/blocks.5/attn/Constant_1_output_0_output: 3a810a14
ONNXTRT_Broadcast_315_output: 3a810a14
/blocks.5/attn/Mul_output_0: 3c017423
/depth_head/output_conv2/output_conv2.0/Conv_output_0: 3ef2c891
/blocks.5/attn/Gather_1_output_0: 3d60025b
/depth_head/refinenet1/resConfUnit1/activation/Relu_output_0: 3d23c9aa
/blocks.5/attn/Gather_2_output_0: 3cf4e51e
/blocks.5/attn/Transpose_1_output_0: 3d60025b
/blocks.5/attn/MatMul_output_0: 3e1e7707
ONNXTRT_flattenTensor_319_output: 3e1e7707
/blocks.5/attn/Softmax_output: 3a9b0232
/blocks.5/attn/Softmax_output_0: 3a9b0232
/blocks.5/attn/MatMul_1_output_0: 3c74c7cb
/blocks.5/attn/Transpose_2_output_0: 3c74c7cb
/blocks.5/attn/Reshape_1_output_0: 3c74c7cb
onnx::MatMul_1458_output: 3a067d12
ONNXTRT_Broadcast_323_output: 3a067d12
/blocks.5/attn/proj/MatMul_output_0: 3b8fec00
pretrained.blocks.5.attn.proj.bias_output: 3abd36ad
ONNXTRT_Broadcast_325_output: 3abd36ad
/blocks.5/attn/proj/Add_output_0: 3baf1d53
pretrained.blocks.5.ls1.gamma_output: 3bf3b2a8
ONNXTRT_Broadcast_327_output: 3bf3b2a8
/blocks.5/ls1/Mul_output_0: 3b3a0e14
/blocks.5/Add_output_0: 3b467c9f
/blocks.5/norm2/ReduceMean_output_0: 3966a0e5
/blocks.5/norm2/Sub_output_0: 3b4dd7fe
/blocks.5/norm2/Constant_output_0_output: 3c810a14
ONNXTRT_Broadcast_329_output: 3c810a14
/blocks.5/norm2/Pow_output_0: 3b2ef6d9
/blocks.5/norm2/ReduceMean_1_output_0: 38b78d9a
/blocks.5/norm2/Constant_1_output_0_output: 32074ebd
ONNXTRT_Broadcast_331_output: 32074ebd
/blocks.5/norm2/Add_output_0: 38b791ed
/blocks.5/norm2/Sqrt_output_0: 3a58db6a
/blocks.5/norm2/Div_output_0: 3d8763f1
pretrained.blocks.5.norm2.weight_output: 3c9c1f34
ONNXTRT_Broadcast_333_output: 3c9c1f34
/blocks.5/norm2/Mul_output_0: 3e065d1f
pretrained.blocks.5.norm2.bias_output: 3c95d30f
ONNXTRT_Broadcast_335_output: 3c95d30f
/blocks.5/norm2/Add_1_output_0: 3ded34b2
onnx::MatMul_1459_output: 3a73b1b2
ONNXTRT_Broadcast_337_output: 3a73b1b2
/blocks.5/mlp/fc1/MatMul_output_0: 3d022a1a
pretrained.blocks.5.mlp.fc1.bias_output: 3c9872ab
ONNXTRT_Broadcast_339_output: 3c9872ab
/blocks.5/mlp/fc1/Add_output_0: 3d45a85d
/blocks.5/mlp/act/Constant_output_0_output: 3c367d3d
ONNXTRT_Broadcast_341_output: 3c367d3d
/blocks.5/mlp/act/Div_output_0: 3d0bc3dd
/blocks.5/mlp/act/Erf_output_0: 3c010a14
/blocks.5/mlp/act/Constant_1_output_0_output: 3c010a14
ONNXTRT_Broadcast_343_output: 3c010a14
/blocks.5/mlp/act/Add_output_0: 3c81121b
/blocks.5/mlp/act/Mul_output_0: 3c94d3e8
/blocks.5/mlp/act/Constant_2_output_0_output: 3b810a14
ONNXTRT_Broadcast_345_output: 3b810a14
/blocks.5/mlp/act/Mul_1_output_0: 3c14d3e8
onnx::MatMul_1460_output: 3a3e6fbb
ONNXTRT_Broadcast_347_output: 3a3e6fbb
/blocks.5/mlp/fc2/MatMul_output_0: 3c1a5398
pretrained.blocks.5.mlp.fc2.bias_output: 3abd4b62
ONNXTRT_Broadcast_349_output: 3abd4b62
/blocks.5/mlp/fc2/Add_output_0: 3bcdb8fb
pretrained.blocks.5.ls2.gamma_output: 3baa4718
ONNXTRT_Broadcast_351_output: 3baa4718
/blocks.5/ls2/Mul_output_0: 3b6f4b25
/blocks.5/Add_1_output_0: 3b879a09
/blocks.6/norm1/ReduceMean_output_0: 39566541
/blocks.6/norm1/Sub_output_0: 3b84bfb3
/blocks.6/norm1/Constant_output_0_output: 3c810a14
ONNXTRT_Broadcast_353_output: 3c810a14
/blocks.6/norm1/Pow_output_0: 3b3d34f9
/blocks.6/norm1/ReduceMean_1_output_0: 38e974f9
/blocks.6/norm1/Constant_1_output_0_output: 32074ebd
ONNXTRT_Broadcast_355_output: 32074ebd
/blocks.6/norm1/Add_output_0: 38e89298
/blocks.6/norm1/Sqrt_output_0: 3a74c999
/blocks.6/norm1/Div_output_0: 3d816bed
pretrained.blocks.6.norm1.weight_output: 3cd15ae7
ONNXTRT_Broadcast_357_output: 3cd15ae7
/blocks.6/norm1/Mul_output_0: 3e1460ce
pretrained.blocks.6.norm1.bias_output: 3c0f71de
ONNXTRT_Broadcast_359_output: 3c0f71de
/blocks.6/norm1/Add_1_output_0: 3dff6805
onnx::MatMul_1461_output: 3a9c036d
ONNXTRT_Broadcast_361_output: 3a9c036d
/blocks.6/attn/qkv/MatMul_output_0: 3d425c82
pretrained.blocks.6.attn.qkv.bias_output: 3cd33829
ONNXTRT_Broadcast_363_output: 3cd33829
/blocks.6/attn/qkv/Add_output_0: 3d64fa3b
/blocks.6/attn/Reshape_output_0: 3d64fa3b
/blocks.6/attn/Transpose_output_0: 3d64fa3b
/depth_head/refinenet1/resConfUnit2/Add_output_0: 3f57fb79
/blocks.6/attn/Gather_output_0: 3d7d6452
/blocks.6/attn/Constant_1_output_0_output: 3a810a14
ONNXTRT_Broadcast_367_output: 3a810a14
/blocks.6/attn/Mul_output_0: 3bfd6452
/depth_head/refinenet1/resConfUnit2/conv1/Conv_output_0: 3e84b7ac
/blocks.6/attn/Gather_1_output_0: 3d649da7
/depth_head/projects.3/Conv_output_0: 3dacf35a
/blocks.6/attn/Gather_2_output_0: 3ce9299a
/blocks.6/attn/Transpose_1_output_0: 3d649da7
/blocks.6/attn/MatMul_output_0: 3e0e555e
ONNXTRT_flattenTensor_371_output: 3e0e555e
/blocks.6/attn/Softmax_output: 3a836d38
/blocks.6/attn/Softmax_output_0: 3a836d38
/blocks.6/attn/MatMul_1_output_0: 3ca92e37
/blocks.6/attn/Transpose_2_output_0: 3ca92e37
/blocks.6/attn/Reshape_1_output_0: 3ca92e37
onnx::MatMul_1472_output: 3a3044c8
ONNXTRT_Broadcast_375_output: 3a3044c8
/blocks.6/attn/proj/MatMul_output_0: 3b551950
pretrained.blocks.6.attn.proj.bias_output: 3aef355a
ONNXTRT_Broadcast_377_output: 3aef355a
/blocks.6/attn/proj/Add_output_0: 3bd471b1
pretrained.blocks.6.ls1.gamma_output: 3bfef205
ONNXTRT_Broadcast_379_output: 3bfef205
/blocks.6/ls1/Mul_output_0: 3b6e19a2
/blocks.6/Add_output_0: 3b803788
/blocks.6/norm2/ReduceMean_output_0: 39627535
/blocks.6/norm2/Sub_output_0: 3b7fd5d8
/blocks.6/norm2/Constant_output_0_output: 3c810a14
ONNXTRT_Broadcast_381_output: 3c810a14
/blocks.6/norm2/Pow_output_0: 3ae8ad55
/blocks.6/norm2/ReduceMean_1_output_0: 38987e8a
/blocks.6/norm2/Constant_1_output_0_output: 32074ebd
ONNXTRT_Broadcast_383_output: 32074ebd
/blocks.6/norm2/Add_output_0: 389882cd
/blocks.6/norm2/Sqrt_output_0: 3a462103
/blocks.6/norm2/Div_output_0: 3d857bc2
pretrained.blocks.6.norm2.weight_output: 3cba1f59
ONNXTRT_Broadcast_385_output: 3cba1f59
/blocks.6/norm2/Mul_output_0: 3e0f9db1
pretrained.blocks.6.norm2.bias_output: 3be226aa
ONNXTRT_Broadcast_387_output: 3be226aa
/blocks.6/norm2/Add_1_output_0: 3e05c17e
onnx::MatMul_1473_output: 3a56fa14
ONNXTRT_Broadcast_389_output: 3a56fa14
/blocks.6/mlp/fc1/MatMul_output_0: 3d0ecd1f
pretrained.blocks.6.mlp.fc1.bias_output: 3ca15779
ONNXTRT_Broadcast_391_output: 3ca15779
/blocks.6/mlp/fc1/Add_output_0: 3d2b2adf
/blocks.6/mlp/act/Constant_output_0_output: 3c367d3d
ONNXTRT_Broadcast_393_output: 3c367d3d
/blocks.6/mlp/act/Div_output_0: 3cf2113d
/blocks.6/mlp/act/Erf_output_0: 3c010a14
/blocks.6/mlp/act/Constant_1_output_0_output: 3c010a14
ONNXTRT_Broadcast_395_output: 3c010a14
/blocks.6/mlp/act/Add_output_0: 3c810ee7
/blocks.6/mlp/act/Mul_output_0: 3cb09eb4
/blocks.6/mlp/act/Constant_2_output_0_output: 3b810a14
ONNXTRT_Broadcast_397_output: 3b810a14
/blocks.6/mlp/act/Mul_1_output_0: 3c309eb4
onnx::MatMul_1474_output: 3a50573d
ONNXTRT_Broadcast_399_output: 3a50573d
/blocks.6/mlp/fc2/MatMul_output_0: 3bb2d1af
pretrained.blocks.6.mlp.fc2.bias_output: 3aedc5b0
ONNXTRT_Broadcast_401_output: 3aedc5b0
/blocks.6/mlp/fc2/Add_output_0: 3bb2ce81
pretrained.blocks.6.ls2.gamma_output: 3bfbd6b2
ONNXTRT_Broadcast_403_output: 3bfbd6b2
/blocks.6/ls2/Mul_output_0: 3bd19813
/blocks.6/Add_1_output_0: 3bb3f13a
/blocks.7/norm1/ReduceMean_output_0: 3985abf7
/blocks.7/norm1/Sub_output_0: 3bb3c7e5
/blocks.7/norm1/Constant_output_0_output: 3c810a14
ONNXTRT_Broadcast_405_output: 3c810a14
/blocks.7/norm1/Pow_output_0: 3bf2e67f
/blocks.7/norm1/ReduceMean_1_output_0: 39565a1c
/blocks.7/norm1/Constant_1_output_0_output: 32074ebd
ONNXTRT_Broadcast_407_output: 32074ebd
/blocks.7/norm1/Add_output_0: 39565c42
/blocks.7/norm1/Sqrt_output_0: 3aa6808c
/blocks.7/norm1/Div_output_0: 3d903b47
pretrained.blocks.7.norm1.weight_output: 3cfadb88
ONNXTRT_Broadcast_409_output: 3cfadb88
/blocks.7/norm1/Mul_output_0: 3e2cda87
pretrained.blocks.7.norm1.bias_output: 3c5c9d7a
ONNXTRT_Broadcast_411_output: 3c5c9d7a
/blocks.7/norm1/Add_1_output_0: 3e18d5e7
onnx::MatMul_1475_output: 3a930e8c
ONNXTRT_Broadcast_413_output: 3a930e8c
/blocks.7/attn/qkv/MatMul_output_0: 3d499c7e
pretrained.blocks.7.attn.qkv.bias_output: 3cea50bf
ONNXTRT_Broadcast_415_output: 3cea50bf
/blocks.7/attn/qkv/Add_output_0: 3d7a592b
/blocks.7/attn/Reshape_output_0: 3d7a592b
/blocks.7/attn/Transpose_output_0: 3d7a592b
/depth_head/Transpose_3_output_0: 3e12c499
/blocks.7/attn/Gather_output_0: 3d83a17e
/blocks.7/attn/Constant_1_output_0_output: 3a810a14
ONNXTRT_Broadcast_419_output: 3a810a14
/blocks.7/attn/Mul_output_0: 3c03a17e
/norm_3/Sqrt_output_0: 3c6dd579
/blocks.7/attn/Gather_1_output_0: 3d580bc1
/depth_head/layer4_rn/Conv_output_0: 3fdc2f49
/blocks.7/attn/Gather_2_output_0: 3cc5308f
/blocks.7/attn/Transpose_1_output_0: 3d580bc1
/blocks.7/attn/MatMul_output_0: 3e209b6d
ONNXTRT_flattenTensor_423_output: 3e209b6d
/blocks.7/attn/Softmax_output: 3a947db2
/blocks.7/attn/Softmax_output_0: 3a947db2
/blocks.7/attn/MatMul_1_output_0: 3c70152b
/blocks.7/attn/Transpose_2_output_0: 3c70152b
/blocks.7/attn/Reshape_1_output_0: 3c70152b
onnx::MatMul_1486_output: 3a43dc15
ONNXTRT_Broadcast_427_output: 3a43dc15
/blocks.7/attn/proj/MatMul_output_0: 3c32ad85
pretrained.blocks.7.attn.proj.bias_output: 3a92ed6c
ONNXTRT_Broadcast_429_output: 3a92ed6c
/blocks.7/attn/proj/Add_output_0: 3c27a4c9
pretrained.blocks.7.ls1.gamma_output: 3c8e1b3a
ONNXTRT_Broadcast_431_output: 3c8e1b3a
/blocks.7/ls1/Mul_output_0: 3c1eed2f
/blocks.7/Add_output_0: 3c05e0af
/blocks.7/norm2/ReduceMean_output_0: 3986fb8b
/blocks.7/norm2/Sub_output_0: 3c0515f7
/blocks.7/norm2/Constant_output_0_output: 3c810a14
ONNXTRT_Broadcast_433_output: 3c810a14
/blocks.7/norm2/Pow_output_0: 3b317c51
/blocks.7/norm2/ReduceMean_1_output_0: 3906862a
/blocks.7/norm2/Constant_1_output_0_output: 32074ebd
ONNXTRT_Broadcast_435_output: 32074ebd
/blocks.7/norm2/Add_output_0: 39068849
/blocks.7/norm2/Sqrt_output_0: 3a82dfb7
/blocks.7/norm2/Div_output_0: 3da9b7e0
pretrained.blocks.7.norm2.weight_output: 3cb7b2c4
ONNXTRT_Broadcast_437_output: 3cb7b2c4
/blocks.7/norm2/Mul_output_0: 3e0dbadf
pretrained.blocks.7.norm2.bias_output: 3c0cb76e
ONNXTRT_Broadcast_439_output: 3c0cb76e
/blocks.7/norm2/Add_1_output_0: 3e010427
onnx::MatMul_1487_output: 3a5ac7d1
ONNXTRT_Broadcast_441_output: 3a5ac7d1
/blocks.7/mlp/fc1/MatMul_output_0: 3d07e9af
pretrained.blocks.7.mlp.fc1.bias_output: 3cb960e2
ONNXTRT_Broadcast_443_output: 3cb960e2
/blocks.7/mlp/fc1/Add_output_0: 3d64294f
/blocks.7/mlp/act/Constant_output_0_output: 3c367d3d
ONNXTRT_Broadcast_445_output: 3c367d3d
/blocks.7/mlp/act/Div_output_0: 3d21559e
/blocks.7/mlp/act/Erf_output_0: 3c010a14
/blocks.7/mlp/act/Constant_1_output_0_output: 3c010a14
ONNXTRT_Broadcast_447_output: 3c010a14
/blocks.7/mlp/act/Add_output_0: 3c810a14
/blocks.7/mlp/act/Mul_output_0: 3cf14fd5
/blocks.7/mlp/act/Constant_2_output_0_output: 3b810a14
ONNXTRT_Broadcast_449_output: 3b810a14
/blocks.7/mlp/act/Mul_1_output_0: 3c714fd5
onnx::MatMul_1488_output: 3a40e5d2
ONNXTRT_Broadcast_451_output: 3a40e5d2
/blocks.7/mlp/fc2/MatMul_output_0: 3c7abe29
pretrained.blocks.7.mlp.fc2.bias_output: 3ac7d5af
ONNXTRT_Broadcast_453_output: 3ac7d5af
/blocks.7/mlp/fc2/Add_output_0: 3bfc973b
pretrained.blocks.7.ls2.gamma_output: 3c4e0fac
ONNXTRT_Broadcast_455_output: 3c4e0fac
/blocks.7/ls2/Mul_output_0: 3c408f08
/blocks.7/Add_1_output_0: 3c06621c
/blocks.8/norm1/ReduceMean_output_0: 39a00133
/blocks.8/norm1/Sub_output_0: 3c05b780
/blocks.8/norm1/Constant_output_0_output: 3c810a14
ONNXTRT_Broadcast_457_output: 3c810a14
/blocks.8/norm1/Pow_output_0: 3c010431
/blocks.8/norm1/ReduceMean_1_output_0: 3993763a
/blocks.8/norm1/Constant_1_output_0_output: 32074ebd
ONNXTRT_Broadcast_459_output: 32074ebd
/blocks.8/norm1/Add_output_0: 39937772
/blocks.8/norm1/Sqrt_output_0: 3ac65800
/blocks.8/norm1/Div_output_0: 3d934607
pretrained.blocks.8.norm1.weight_output: 3cfbbd21
ONNXTRT_Broadcast_461_output: 3cfbbd21
/blocks.8/norm1/Mul_output_0: 3e4b44bc
pretrained.blocks.8.norm1.bias_output: 3c9e8570
ONNXTRT_Broadcast_463_output: 3c9e8570
/blocks.8/norm1/Add_1_output_0: 3e2dd642
onnx::MatMul_1489_output: 3a950cd6
ONNXTRT_Broadcast_465_output: 3a950cd6
/blocks.8/attn/qkv/MatMul_output_0: 3d56ceb8
pretrained.blocks.8.attn.qkv.bias_output: 3d0903b2
ONNXTRT_Broadcast_467_output: 3d0903b2
/blocks.8/attn/qkv/Add_output_0: 3d89041a
/blocks.8/attn/Reshape_output_0: 3d89041a
/blocks.8/attn/Transpose_output_0: 3d89041a
/depth_head/refinenet2/resConfUnit1/activation/Relu_output_0: 3d8c44b0
/blocks.8/attn/Gather_output_0: 3d90e234
/blocks.8/attn/Constant_1_output_0_output: 3a810a14
ONNXTRT_Broadcast_471_output: 3a810a14
/blocks.8/attn/Mul_output_0: 3c10e234
/Slice_1_output_0: 3f05b19c
/blocks.8/attn/Gather_1_output_0: 3d606eee
/depth_head/resize_layers.0/ConvTranspose_output_0: 3cb5e179
/blocks.8/attn/Gather_2_output_0: 3ceb7f0c
/blocks.8/attn/Transpose_1_output_0: 3d606eee
/blocks.8/attn/MatMul_output_0: 3e129efe
ONNXTRT_flattenTensor_475_output: 3e129efe
/blocks.8/attn/Softmax_output: 3a7ab898
/blocks.8/attn/Softmax_output_0: 3a7ab898
/blocks.8/attn/MatMul_1_output_0: 3ca79d2c
/blocks.8/attn/Transpose_2_output_0: 3ca79d2c
/blocks.8/attn/Reshape_1_output_0: 3ca79d2c
onnx::MatMul_1500_output: 3a84080c
ONNXTRT_Broadcast_479_output: 3a84080c
/blocks.8/attn/proj/MatMul_output_0: 3c965664
pretrained.blocks.8.attn.proj.bias_output: 3b180e36
ONNXTRT_Broadcast_481_output: 3b180e36
/blocks.8/attn/proj/Add_output_0: 3c47bfaa
pretrained.blocks.8.ls1.gamma_output: 3c8cb019
ONNXTRT_Broadcast_483_output: 3c8cb019
/blocks.8/ls1/Mul_output_0: 3c40d439
/blocks.8/Add_output_0: 3c2578e5
/blocks.8/norm2/ReduceMean_output_0: 399ce592
/blocks.8/norm2/Sub_output_0: 3c24fe2e
/blocks.8/norm2/Constant_output_0_output: 3c810a14
ONNXTRT_Broadcast_485_output: 3c810a14
/blocks.8/norm2/Pow_output_0: 3bd1fd5b
/blocks.8/norm2/ReduceMean_1_output_0: 398b4fa7
/blocks.8/norm2/Constant_1_output_0_output: 32074ebd
ONNXTRT_Broadcast_487_output: 32074ebd
/blocks.8/norm2/Add_output_0: 39893db0
/blocks.8/norm2/Sqrt_output_0: 3abfef02
/blocks.8/norm2/Div_output_0: 3d92737b
pretrained.blocks.8.norm2.weight_output: 3cdf63bb
ONNXTRT_Broadcast_489_output: 3cdf63bb
/blocks.8/norm2/Mul_output_0: 3e1c1026
pretrained.blocks.8.norm2.bias_output: 3c3a07d1
ONNXTRT_Broadcast_491_output: 3c3a07d1
/blocks.8/norm2/Add_1_output_0: 3e26f78d
onnx::MatMul_1501_output: 3a8e8e75
ONNXTRT_Broadcast_493_output: 3a8e8e75
/blocks.8/mlp/fc1/MatMul_output_0: 3d237d38
pretrained.blocks.8.mlp.fc1.bias_output: 3cade571
ONNXTRT_Broadcast_495_output: 3cade571
/blocks.8/mlp/fc1/Add_output_0: 3d797dc2
/blocks.8/mlp/act/Constant_output_0_output: 3c367d3d
ONNXTRT_Broadcast_497_output: 3c367d3d
/blocks.8/mlp/act/Div_output_0: 3d306abc
/blocks.8/mlp/act/Erf_output_0: 3c010a14
/blocks.8/mlp/act/Constant_1_output_0_output: 3c010a14
ONNXTRT_Broadcast_499_output: 3c010a14
/blocks.8/mlp/act/Add_output_0: 3c810a14
/blocks.8/mlp/act/Mul_output_0: 3d0214e6
/blocks.8/mlp/act/Constant_2_output_0_output: 3b810a14
ONNXTRT_Broadcast_501_output: 3b810a14
/blocks.8/mlp/act/Mul_1_output_0: 3c8214e6
onnx::MatMul_1502_output: 3a624e1e
ONNXTRT_Broadcast_503_output: 3a624e1e
/blocks.8/mlp/fc2/MatMul_output_0: 3c33d6a4
pretrained.blocks.8.mlp.fc2.bias_output: 3b09f82e
ONNXTRT_Broadcast_505_output: 3b09f82e
/blocks.8/mlp/fc2/Add_output_0: 3bf4ffa7
pretrained.blocks.8.ls2.gamma_output: 3ccd1a09
ONNXTRT_Broadcast_507_output: 3ccd1a09
/blocks.8/ls2/Mul_output_0: 3c63bac5
/blocks.8/Add_1_output_0: 3c654cdf
/blocks.9/norm1/ReduceMean_output_0: 39f1eab2
/blocks.9/norm1/Sub_output_0: 3c6420e6
/blocks.9/norm1/Constant_output_0_output: 3c810a14
ONNXTRT_Broadcast_509_output: 3c810a14
/blocks.9/norm1/Pow_output_0: 3cbc29a7
/blocks.9/norm1/ReduceMean_1_output_0: 3a4722e9
/blocks.9/norm1/Constant_1_output_0_output: 32074ebd
ONNXTRT_Broadcast_511_output: 32074ebd
/blocks.9/norm1/Add_output_0: 3a47237b
/blocks.9/norm1/Sqrt_output_0: 3b1e8a51
/blocks.9/norm1/Div_output_0: 3d8a5ae8
pretrained.blocks.9.norm1.weight_output: 3d0fe4a0
ONNXTRT_Broadcast_513_output: 3d0fe4a0
/blocks.9/norm1/Mul_output_0: 3e4ce1c3
pretrained.blocks.9.norm1.bias_output: 3c28e711
ONNXTRT_Broadcast_515_output: 3c28e711
/blocks.9/norm1/Add_1_output_0: 3e46b8f8
onnx::MatMul_1503_output: 3a7f7d6e
ONNXTRT_Broadcast_517_output: 3a7f7d6e
/blocks.9/attn/qkv/MatMul_output_0: 3d75ac50
pretrained.blocks.9.attn.qkv.bias_output: 3d1edb8a
ONNXTRT_Broadcast_519_output: 3d1edb8a
/blocks.9/attn/qkv/Add_output_0: 3d8257a8
/blocks.9/attn/Reshape_output_0: 3d8257a8
/blocks.9/attn/Transpose_output_0: 3d8257a8
/depth_head/projects.0/Conv_output_0: 3dc18974
/blocks.9/attn/Gather_output_0: 3d8790cb
/blocks.9/attn/Constant_1_output_0_output: 3a810a14
ONNXTRT_Broadcast_523_output: 3a810a14
/blocks.9/attn/Mul_output_0: 3c0790cb
/depth_head/resize_layers.1/ConvTranspose_output_0: 3d1db0dd
/blocks.9/attn/Gather_1_output_0: 3d854e78
/depth_head/Transpose_1_output_0: 3f05b19c
/blocks.9/attn/Gather_2_output_0: 3cece308
/blocks.9/attn/Transpose_1_output_0: 3d854e78
/blocks.9/attn/MatMul_output_0: 3e546fce
ONNXTRT_flattenTensor_527_output: 3e546fce
/blocks.9/attn/Softmax_output: 3a61e565
/blocks.9/attn/Softmax_output_0: 3a61e565
/blocks.9/attn/MatMul_1_output_0: 3cb04d84
/blocks.9/attn/Transpose_2_output_0: 3cb04d84
/blocks.9/attn/Reshape_1_output_0: 3cb04d84
onnx::MatMul_1514_output: 3a3ff776
ONNXTRT_Broadcast_531_output: 3a3ff776
/blocks.9/attn/proj/MatMul_output_0: 3bf339e2
pretrained.blocks.9.attn.proj.bias_output: 3ace016e
ONNXTRT_Broadcast_533_output: 3ace016e
/blocks.9/attn/proj/Add_output_0: 3bb2f0ea
pretrained.blocks.9.ls1.gamma_output: 3d009848
ONNXTRT_Broadcast_535_output: 3d009848
/blocks.9/ls1/Mul_output_0: 3c43ab88
/blocks.9/Add_output_0: 3c66211a
/blocks.9/norm2/ReduceMean_output_0: 39edc598
/blocks.9/norm2/Sub_output_0: 3c668437
/blocks.9/norm2/Constant_output_0_output: 3c810a14
ONNXTRT_Broadcast_537_output: 3c810a14
/blocks.9/norm2/Pow_output_0: 3c2fd30c
/blocks.9/norm2/ReduceMean_1_output_0: 3a2610ca
/blocks.9/norm2/Constant_1_output_0_output: 32074ebd
ONNXTRT_Broadcast_539_output: 32074ebd
/blocks.9/norm2/Add_output_0: 3a261165
/blocks.9/norm2/Sqrt_output_0: 3b107fd4
/blocks.9/norm2/Div_output_0: 3d8564ff
pretrained.blocks.9.norm2.weight_output: 3d0a1363
ONNXTRT_Broadcast_541_output: 3d0a1363
/blocks.9/norm2/Mul_output_0: 3e0e6d21
pretrained.blocks.9.norm2.bias_output: 3c456f1c
ONNXTRT_Broadcast_543_output: 3c456f1c
/blocks.9/norm2/Add_1_output_0: 3e062194
onnx::MatMul_1515_output: 3a657133
ONNXTRT_Broadcast_545_output: 3a657133
/blocks.9/mlp/fc1/MatMul_output_0: 3d1ab338
pretrained.blocks.9.mlp.fc1.bias_output: 3cb41f67
ONNXTRT_Broadcast_547_output: 3cb41f67
/blocks.9/mlp/fc1/Add_output_0: 3d4cdc18
/blocks.9/mlp/act/Constant_output_0_output: 3c367d3d
ONNXTRT_Broadcast_549_output: 3c367d3d
/blocks.9/mlp/act/Div_output_0: 3d10db93
/blocks.9/mlp/act/Erf_output_0: 3c010a14
/blocks.9/mlp/act/Constant_1_output_0_output: 3c010a14
ONNXTRT_Broadcast_551_output: 3c010a14
/blocks.9/mlp/act/Add_output_0: 3c810a14
/blocks.9/mlp/act/Mul_output_0: 3cf013e8
/blocks.9/mlp/act/Constant_2_output_0_output: 3b810a14
ONNXTRT_Broadcast_553_output: 3b810a14
/blocks.9/mlp/act/Mul_1_output_0: 3c7013e8
onnx::MatMul_1516_output: 3a588385
ONNXTRT_Broadcast_555_output: 3a588385
/blocks.9/mlp/fc2/MatMul_output_0: 3bf75ff5
pretrained.blocks.9.mlp.fc2.bias_output: 3b2728df
ONNXTRT_Broadcast_557_output: 3b2728df
/blocks.9/mlp/fc2/Add_output_0: 3c3d2dbf
pretrained.blocks.9.ls2.gamma_output: 3d06868f
ONNXTRT_Broadcast_559_output: 3d06868f
/blocks.9/ls2/Mul_output_0: 3c9a13d1
/blocks.9/Add_1_output_0: 3c8ac2d2
/blocks.10/norm1/ReduceMean_output_0: 3a207d95
/blocks.10/norm1/Sub_output_0: 3c8a3f3e
/blocks.10/norm1/Constant_output_0_output: 3c810a14
ONNXTRT_Broadcast_561_output: 3c810a14
/blocks.10/norm1/Pow_output_0: 3fa0036f
/blocks.10/norm1/ReduceMean_1_output_0: 3aef9578
/blocks.10/norm1/Constant_1_output_0_output: 32074ebd
ONNXTRT_Broadcast_563_output: 32074ebd
/blocks.10/norm1/Add_output_0: 3aef9592
/blocks.10/norm1/Sqrt_output_0: 3bd0724e
/blocks.10/norm1/Div_output_0: 3d81a558
pretrained.blocks.10.norm1.weight_output: 3ceadfcb
ONNXTRT_Broadcast_565_output: 3ceadfcb
/blocks.10/norm1/Mul_output_0: 3e7f859c
pretrained.blocks.10.norm1.bias_output: 3c344bd8
ONNXTRT_Broadcast_567_output: 3c344bd8
/blocks.10/norm1/Add_1_output_0: 3e55f693
onnx::MatMul_1517_output: 3a72fda9
ONNXTRT_Broadcast_569_output: 3a72fda9
/blocks.10/attn/qkv/MatMul_output_0: 3d56b622
pretrained.blocks.10.attn.qkv.bias_output: 3d0c471c
ONNXTRT_Broadcast_571_output: 3d0c471c
/blocks.10/attn/qkv/Add_output_0: 3d94b4a7
/blocks.10/attn/Reshape_output_0: 3d94b4a7
/blocks.10/attn/Transpose_output_0: 3d94b4a7
/norm_3/Mul_output_0: 3e15ff3f
/blocks.10/attn/Gather_output_0: 3d99e073
/blocks.10/attn/Constant_1_output_0_output: 3a810a14
ONNXTRT_Broadcast_575_output: 3a810a14
/blocks.10/attn/Mul_output_0: 3c19e073
/depth_head/refinenet1/resConfUnit1/Add_output_0: 3d759aef
/blocks.10/attn/Gather_1_output_0: 3d6ddc08
/depth_head/refinenet1/Add_output_0: 3f5388f2
/blocks.10/attn/Gather_2_output_0: 3ccdb0eb
/blocks.10/attn/Transpose_1_output_0: 3d6ddc08
/blocks.10/attn/MatMul_output_0: 3de5dd45
ONNXTRT_flattenTensor_579_output: 3de5dd45
/blocks.10/attn/Softmax_output: 3a927796
/blocks.10/attn/Softmax_output_0: 3a927796
/blocks.10/attn/MatMul_1_output_0: 3c7b3db9
/blocks.10/attn/Transpose_2_output_0: 3c7b3db9
/blocks.10/attn/Reshape_1_output_0: 3c7b3db9
onnx::MatMul_1528_output: 3a211539
ONNXTRT_Broadcast_583_output: 3a211539
/blocks.10/attn/proj/MatMul_output_0: 3c17ade2
pretrained.blocks.10.attn.proj.bias_output: 3adf5200
ONNXTRT_Broadcast_585_output: 3adf5200
/blocks.10/attn/proj/Add_output_0: 3c1d4434
pretrained.blocks.10.ls1.gamma_output: 3d279731
ONNXTRT_Broadcast_587_output: 3d279731
/blocks.10/ls1/Mul_output_0: 3cac2cd7
/blocks.10/Add_output_0: 3cb508bb
/blocks.10/norm2/ReduceMean_output_0: 3a4aa4a0
/blocks.10/norm2/Sub_output_0: 3cb454f2
/blocks.10/norm2/Constant_output_0_output: 3c810a14
ONNXTRT_Broadcast_589_output: 3c810a14
/blocks.10/norm2/Pow_output_0: 3f4b9eb5
/blocks.10/norm2/ReduceMean_1_output_0: 3ae4fbf7
/blocks.10/norm2/Constant_1_output_0_output: 32074ebd
ONNXTRT_Broadcast_591_output: 32074ebd
/blocks.10/norm2/Add_output_0: 3ae4fc15
/blocks.10/norm2/Sqrt_output_0: 3bbe0166
/blocks.10/norm2/Div_output_0: 3d94342e
pretrained.blocks.10.norm2.weight_output: 3d207dea
ONNXTRT_Broadcast_593_output: 3d207dea
/blocks.10/norm2/Mul_output_0: 3e47192e
pretrained.blocks.10.norm2.bias_output: 3c937d3b
ONNXTRT_Broadcast_595_output: 3c937d3b
/blocks.10/norm2/Add_1_output_0: 3e361285
onnx::MatMul_1529_output: 3a4197bd
ONNXTRT_Broadcast_597_output: 3a4197bd
/blocks.10/mlp/fc1/MatMul_output_0: 3d366cdf
pretrained.blocks.10.mlp.fc1.bias_output: 3cbbd9b9
ONNXTRT_Broadcast_599_output: 3cbbd9b9
/blocks.10/mlp/fc1/Add_output_0: 3d6a866d
/blocks.10/mlp/act/Constant_output_0_output: 3c367d3d
ONNXTRT_Broadcast_601_output: 3c367d3d
/blocks.10/mlp/act/Div_output_0: 3d25d594
/blocks.10/mlp/act/Erf_output_0: 3c010a14
/blocks.10/mlp/act/Constant_1_output_0_output: 3c010a14
ONNXTRT_Broadcast_603_output: 3c010a14
/blocks.10/mlp/act/Add_output_0: 3c810a14
/blocks.10/mlp/act/Mul_output_0: 3cbd0d16
/blocks.10/mlp/act/Constant_2_output_0_output: 3b810a14
ONNXTRT_Broadcast_605_output: 3b810a14
/blocks.10/mlp/act/Mul_1_output_0: 3c3d0d16
onnx::MatMul_1530_output: 3a5745af
ONNXTRT_Broadcast_607_output: 3a5745af
/blocks.10/mlp/fc2/MatMul_output_0: 3c64cef5
pretrained.blocks.10.mlp.fc2.bias_output: 3b0e944c
ONNXTRT_Broadcast_609_output: 3b0e944c
/blocks.10/mlp/fc2/Add_output_0: 3c098983
pretrained.blocks.10.ls2.gamma_output: 3d2fbf9b
ONNXTRT_Broadcast_611_output: 3d2fbf9b
/blocks.10/ls2/Mul_output_0: 3cf8e586
/blocks.10/Add_1_output_0: 3ceeda16
/blocks.11/norm1/ReduceMean_output_0: 3a61a34a
/blocks.11/norm1/Sub_output_0: 3cedee2d
/blocks.11/norm1/Constant_output_0_output: 3c810a14
ONNXTRT_Broadcast_613_output: 3c810a14
/blocks.11/norm1/Pow_output_0: 3e5cff9e
/blocks.11/norm1/ReduceMean_1_output_0: 3bd62666
/blocks.11/norm1/Constant_1_output_0_output: 32074ebd
ONNXTRT_Broadcast_615_output: 32074ebd
/blocks.11/norm1/Add_output_0: 3bd62678
/blocks.11/norm1/Sqrt_output_0: 3bee1b94
/blocks.11/norm1/Div_output_0: 3d98cd52
pretrained.blocks.11.norm1.weight_output: 3d6e2abd
ONNXTRT_Broadcast_617_output: 3d6e2abd
/blocks.11/norm1/Mul_output_0: 3e70cd32
pretrained.blocks.11.norm1.bias_output: 3c32e7cf
ONNXTRT_Broadcast_619_output: 3c32e7cf
/blocks.11/norm1/Add_1_output_0: 3e533acf
onnx::MatMul_1531_output: 3a94d6f9
ONNXTRT_Broadcast_621_output: 3a94d6f9
/blocks.11/attn/qkv/MatMul_output_0: 3d5ad7ae
pretrained.blocks.11.attn.qkv.bias_output: 3d80a7d1
ONNXTRT_Broadcast_623_output: 3d80a7d1
/blocks.11/attn/qkv/Add_output_0: 3e06a764
/blocks.11/attn/Reshape_output_0: 3e06a764
/blocks.11/attn/Transpose_output_0: 3e06a764
/blocks.11/attn/Gather_output_0: 3d813448
/blocks.11/attn/Constant_1_output_0_output: 3a810a14
ONNXTRT_Broadcast_627_output: 3a810a14
/blocks.11/attn/Mul_output_0: 3c013448
/blocks.11/attn/Gather_1_output_0: 3e0bae09
/blocks.11/attn/Gather_2_output_0: 3cea37f3
/blocks.11/attn/Transpose_1_output_0: 3e0bae09
/blocks.11/attn/MatMul_output_0: 3e9d243c
ONNXTRT_flattenTensor_631_output: 3e9d243c
/blocks.11/attn/Softmax_output: 3a844c06
/blocks.11/attn/Softmax_output_0: 3a844c06
/blocks.11/attn/MatMul_1_output_0: 3ca85d4d
/blocks.11/attn/Transpose_2_output_0: 3ca85d4d
/blocks.11/attn/Reshape_1_output_0: 3ca85d4d
onnx::MatMul_1542_output: 3abbe897
ONNXTRT_Broadcast_635_output: 3abbe897
/blocks.11/attn/proj/MatMul_output_0: 3d058181
pretrained.blocks.11.attn.proj.bias_output: 3b8eab91
ONNXTRT_Broadcast_637_output: 3b8eab91
/blocks.11/attn/proj/Add_output_0: 3cc3a3b1
pretrained.blocks.11.ls1.gamma_output: 3d9a63ac
ONNXTRT_Broadcast_639_output: 3d9a63ac
/blocks.11/ls1/Mul_output_0: 3dd75a88
/blocks.11/Add_output_0: 3e0558b6
/blocks.11/norm2/ReduceMean_output_0: 3aa674ed
/blocks.11/norm2/Sub_output_0: 3e052b25
/blocks.11/norm2/Constant_output_0_output: 3c810a14
ONNXTRT_Broadcast_641_output: 3c810a14
/blocks.11/norm2/Pow_output_0: 3f08877f
/blocks.11/norm2/ReduceMean_1_output_0: 3c9cefe0
/blocks.11/norm2/Constant_1_output_0_output: 32074ebd
ONNXTRT_Broadcast_643_output: 32074ebd
/blocks.11/norm2/Add_output_0: 3c9cefe4
/blocks.11/norm2/Sqrt_output_0: 3c47e279
/blocks.11/norm2/Div_output_0: 3dc0d74c
pretrained.blocks.11.norm2.weight_output: 3d78d80d
ONNXTRT_Broadcast_645_output: 3d78d80d
/blocks.11/norm2/Mul_output_0: 3deeb579
pretrained.blocks.11.norm2.bias_output: 3c7b427d
ONNXTRT_Broadcast_647_output: 3c7b427d
/blocks.11/norm2/Add_1_output_0: 3de6a3a8
onnx::MatMul_1543_output: 3a69fa56
ONNXTRT_Broadcast_649_output: 3a69fa56
/blocks.11/mlp/fc1/MatMul_output_0: 3d2a2b53
pretrained.blocks.11.mlp.fc1.bias_output: 3ca50fba
ONNXTRT_Broadcast_651_output: 3ca50fba
/blocks.11/mlp/fc1/Add_output_0: 3d128450
/blocks.11/mlp/act/Constant_output_0_output: 3c367d3d
ONNXTRT_Broadcast_653_output: 3c367d3d
/blocks.11/mlp/act/Div_output_0: 3ccf34c4
/blocks.11/mlp/act/Erf_output_0: 3c00f027
/blocks.11/mlp/act/Constant_1_output_0_output: 3c010a14
ONNXTRT_Broadcast_655_output: 3c010a14
/blocks.11/mlp/act/Add_output_0: 3c811146
/blocks.11/mlp/act/Mul_output_0: 3cef2879
/blocks.11/mlp/act/Constant_2_output_0_output: 3b810a14
ONNXTRT_Broadcast_657_output: 3b810a14
/blocks.11/mlp/act/Mul_1_output_0: 3c6f2879
onnx::MatMul_1544_output: 3a2bb0cf
ONNXTRT_Broadcast_659_output: 3a2bb0cf
/blocks.11/mlp/fc2/MatMul_output_0: 3c8f502f
pretrained.blocks.11.mlp.fc2.bias_output: 3b586551
ONNXTRT_Broadcast_661_output: 3b586551
/blocks.11/mlp/fc2/Add_output_0: 3c2bedbc
pretrained.blocks.11.ls2.gamma_output: 3db34350
ONNXTRT_Broadcast_663_output: 3db34350
/blocks.11/ls2/Mul_output_0: 3dcda4dd
/blocks.11/Add_1_output_0: 3e2954c4
/norm/ReduceMean_output_0: 39326cfc
/norm/Sub_output_0: 3b13cde8
/norm/Constant_output_0_output: 3c810a14
ONNXTRT_Broadcast_665_output: 3c810a14
/norm/Pow_output_0: 3b6130c3
/norm/ReduceMean_1_output_0: 375d470f
/norm/Constant_1_output_0_output: 32074ebd
ONNXTRT_Broadcast_667_output: 32074ebd
/norm/Add_output_0: 375d4bc5
/norm/Sqrt_output_0: 39aa1287
/norm/Div_output_0: 3d9bc709
pretrained.norm.weight_output: 3dad28c5
ONNXTRT_Broadcast_669_output: 3dad28c5
/norm/Mul_output_0: 3eee5b1a
pretrained.norm.bias_output: 3c35415e
ONNXTRT_Broadcast_671_output: 3c35415e
/norm/Add_1_output_0: 3eeea51c
/norm_1/ReduceMean_output_0: 39566541
/norm_1/Sub_output_0: 3b84bfb3
/norm_1/Constant_output_0_output: 3c810a14
ONNXTRT_Broadcast_673_output: 3c810a14
/norm_1/Pow_output_0: 3b3d34f9
/norm_1/ReduceMean_1_output_0: 38e974f9
/norm_1/Constant_1_output_0_output: 32074ebd
ONNXTRT_Broadcast_675_output: 32074ebd
/norm_1/Add_output_0: 38e89298
/norm_1/Sqrt_output_0: 3a74c999
/norm_1/Div_output_0: 3d816bed
ONNXTRT_Broadcast_677_output: 3dad28c5
/norm_1/Mul_output_0: 3efea741
ONNXTRT_Broadcast_679_output: 3c35415e
/norm_1/Add_1_output_0: 3f05b19c
/norm_2/ReduceMean_output_0: 39f1eab2
/norm_2/Sub_output_0: 3c6420e6
/norm_2/Constant_output_0_output: 3c810a14
ONNXTRT_Broadcast_681_output: 3c810a14
/norm_2/Pow_output_0: 3cbc29a7
/norm_2/ReduceMean_1_output_0: 3a4722e9
/norm_2/Constant_1_output_0_output: 32074ebd
ONNXTRT_Broadcast_683_output: 32074ebd
/norm_2/Add_output_0: 3a47237b
/norm_2/Sqrt_output_0: 3b1e8a51
/norm_2/Div_output_0: 3d8a5ae8
ONNXTRT_Broadcast_685_output: 3dad28c5
/norm_2/Mul_output_0: 3ee80582
ONNXTRT_Broadcast_687_output: 3c35415e
/norm_2/Add_1_output_0: 3ee61295
/norm_3/ReduceMean_output_0: 3ae08719
/norm_3/Sub_output_0: 3e293a17
/norm_3/Constant_output_0_output: 3c810a14
ONNXTRT_Broadcast_689_output: 3c810a14
/norm_3/Pow_output_0: 3f5a590f
/norm_3/ReduceMean_1_output_0: 3cd28dc6
/norm_3/Constant_1_output_0_output: 32074ebd
ONNXTRT_Broadcast_691_output: 32074ebd
/norm_3/Add_output_0: 3cd28dcb
